<unk>	0
<s>	0
</s>	0
▁	-2.98045
,	-3.03073
.	-3.17281
s	-3.53358
▁the	-3.62601
▁a	-4.05111
▁and	-4.07917
▁can	-4.24129
▁of	-4.33573
ing	-4.54154
▁be	-4.55313
▁to	-4.6813
▁subword	-4.75197
▁is	-4.75264
▁as	-4.8132
▁BPE	-4.82887
▁language	-4.91223
▁word	-4.97599
-	-5.00312
▁tokenizer	-5.00312
▁units	-5.00312
▁words	-5.03385
m	-5.09056
▁The	-5.10307
▁corpus	-5.10312
▁vocabulary	-5.10339
▁may	-5.21454
▁learn	-5.32284
ization	-5.3346
▁in	-5.33999
▁tokens	-5.36642
y	-5.40436
ed	-5.41837
es	-5.42352
i	-5.44629
▁token	-5.44643
▁A	-5.48208
▁into	-5.48209
▁processing	-5.48648
▁tokenization	-5.48745
▁un	-5.49431
▁for	-5.64864
▁algorithm	-5.64875
▁training	-5.64875
▁understand	-5.64875
level	-5.64886
▁text	-5.65021
▁re	-5.66101
▁learning	-5.66462
d	-5.71243
t	-5.78712
▁pair	-5.81132
▁sequence	-5.81474
▁frequent	-5.84637
▁h	-5.84751
▁from	-5.84875
▁natural	-5.84875
▁frequently	-5.85137
▁learned	-5.85704
▁models	-5.85967
able	-5.86069
▁merges	-5.86535
▁characters	-5.86681
u	-5.93088
▁t	-5.93119
n	-5.95631
cl	-5.9764
o	-6.04878
er	-6.06078
▁represent	-6.09087
▁large	-6.0978
▁with	-6.09875
▁become	-6.09875
▁data	-6.09875
▁experiment	-6.09875
▁international	-6.09875
▁networks	-6.09875
▁number	-6.09875
▁patterns	-6.09875
▁that	-6.09875
▁useful	-6.09905
▁different	-6.09907
▁smaller	-6.09918
▁such	-6.09934
▁used	-6.10148
▁represented	-6.10381
▁it	-6.10721
▁have	-6.10773
ies	-6.10832
▁or	-6.10905
ation	-6.11733
▁on	-6.12147
▁an	-6.12803
ly	-6.13737
▁s	-6.14306
▁p	-6.15115
te	-6.31801
ve	-6.32154
a	-6.34222
ment	-6.39386
al	-6.39451
mm	-6.39465
ication	-6.39847
▁character	-6.40064
▁de	-6.4083
▁process	-6.42128
tion	-6.42581
▁S	-6.42743
▁use	-6.42791
▁occur	-6.43096
▁between	-6.43209
▁genera	-6.43209
▁preprocessing	-6.43209
▁size	-6.43209
▁pro	-6.43209
▁Subword	-6.43209
▁example	-6.43209
▁most	-6.43209
▁rare	-6.43209
▁machine	-6.43216
▁ob	-6.43247
ence	-6.43267
▁these	-6.43278
assi	-6.43282
▁converted	-6.43326
▁how	-6.43418
ext	-6.43466
▁pre	-6.4353
▁containing	-6.43972
im	-6.45092
fic	-6.45839
▁f	-6.46608
di	-6.47865
▁then	-6.48587
▁sequences	-6.49577
▁com	-6.50043
p	-6.52217
▁d	-6.5314
larly	-6.54227
▁merge	-6.54766
▁n	-6.55311
▁e	-6.60691
ch	-6.71677
bo	-6.74396
f	-6.81107
en	-6.81946
e	-6.82272
ut	-6.82861
ur	-6.85096
un	-6.86359
on	-6.88641
ct	-6.89353
▁symbol	-6.89506
▁model	-6.90092
l	-6.90148
ar	-6.91678
▁contain	-6.91974
▁su	-6.9238
ow	-6.92704
▁divide	-6.92779
▁th	-6.92942
ci	-6.92967
▁Transformer	-6.93208
▁we	-6.93208
▁repeated	-6.93208
▁segment	-6.93208
ective	-6.93209
happy	-6.93209
pose	-6.93209
refixes	-6.93209
refore	-6.93209
tudents	-6.93209
▁Co	-6.93209
▁For	-6.93209
▁IDs	-6.93209
▁In	-6.93209
▁Instead	-6.93209
▁NLP	-6.93209
▁Natural	-6.93209
▁This	-6.93209
▁Token	-6.93209
▁adjacent	-6.93209
▁appear	-6.93209
▁application	-6.93209
▁because	-6.93209
▁before	-6.93209
▁collection	-6.93209
▁computational	-6.93209
▁important	-6.93209
▁individual	-6.93209
▁linguistic	-6.93209
▁long	-6.93209
▁lowercase	-6.93209
▁mechanism	-6.93209
▁multilingual	-6.93209
▁numerical	-6.93209
▁other	-6.93209
▁provides	-6.93209
▁recurring	-6.93209
▁relationships	-6.93209
▁require	-6.93209
▁resulting	-6.93209
▁rules	-6.93209
▁separat	-6.93209
▁sho	-6.93209
▁statistical	-6.93209
▁suffixes	-6.93209
▁techn	-6.93209
▁when	-6.93209
▁frequenc	-6.93209
▁identif	-6.93209
▁while	-6.93209
gra	-6.93209
odern	-6.93209
sign	-6.93209
▁computer	-6.93209
▁After	-6.93209
▁play	-6.93209
imple	-6.93209
▁also	-6.93209
ical	-6.9321
▁attention	-6.9321
▁not	-6.9321
nsider	-6.9321
▁more	-6.9321
ounts	-6.93213
▁using	-6.93213
olution	-6.93221
▁this	-6.93224
▁has	-6.93228
▁These	-6.93237
based	-6.93269
rt	-6.93271
formation	-6.93274
▁produce	-6.93285
▁neural	-6.93286
▁complete	-6.93287
▁forms	-6.93291
▁every	-6.93306
▁occurr	-6.93392
trained	-6.93399
▁unique	-6.93409
▁many	-6.93417
▁larger	-6.93426
ory	-6.93464
tic	-6.93507
▁by	-6.93514
ually	-6.93542
▁mea	-6.93573
▁one	-6.93593
mental	-6.936
op	-6.93612
▁divided	-6.9364
act	-6.93661
▁do	-6.93747
▁representation	-6.93909
▁sp	-6.94007
ally	-6.94053
▁en	-6.94338
ep	-6.9439
▁allows	-6.94583
▁sentences	-6.946
ding	-6.94979
ted	-6.95168
ok	-6.95279
▁new	-6.95569
ord	-6.96065
▁ev	-6.96118
ever	-6.96162
cal	-6.96271
nc	-6.96859
▁symbols	-6.97049
▁are	-6.97533
ine	-6.98016
end	-6.98989
ments	-6.99646
per	-7.00759
▁pairs	-7.05063
▁bu	-7.05963
re	-7.08854
ach	-7.18239
til	-7.21004
c	-7.2453
dr	-7.26627
ac	-7.28171
artic	-7.3128
▁arti	-7.33953
el	-7.38028
ri	-7.38346
eep	-7.41881
▁merg	-7.4678
▁st	-7.4813
▁ea	-7.4824
r	-7.55649
ular	-7.56875
ll	-7.59223
▁b	-7.66625
▁co	-7.67899
▁pu	-7.69533
li	-7.71916
▁ing	-7.74238
b	-7.76849
v	-7.76962
in	-7.78952
or	-7.79375
ne	-7.83915
ble	-7.84718
an	-7.8506
la	-7.85364
ver	-7.8632
tr	-7.86394
il	-7.8683
ev	-7.87156
new	-7.87409
k	-7.88051
have	-7.88147
word	-7.88493
▁con	-7.88615
are	-7.88621
▁se	-7.88804
and	-7.8923
▁sentence	-7.89739
be	-7.89747
of	-7.89782
llow	-7.90505
▁ex	-7.91069
part	-7.92151
bs	-7.92172
▁c	-7.92268
▁me	-7.92445
que	-7.92512
▁convert	-7.92723
▁ma	-7.92724
ained	-7.92729
▁vocabular	-7.92783
▁allow	-7.92882
icul	-7.9291
▁pr	-7.92953
▁small	-7.92958
x	-7.9297
air	-7.92993
ks	-7.92994
▁comple	-7.93009
eural	-7.93012
duce	-7.93015
ifferent	-7.93025
requent	-7.93041
▁representati	-7.93087
▁man	-7.93158
anguage	-7.93173
▁corp	-7.93202
reme	-7.93202
▁whi	-7.93208
equently	-7.93208
ecurr	-7.93208
L	-7.93209
age	-7.93209
aliz	-7.93209
ith	-7.93209
j	-7.93209
ransformer	-7.93209
pret	-7.93209
ppli	-7.93209
▁exam	-7.9321
educ	-7.93211
ude	-7.93214
tten	-7.93216
ntly	-7.93218
ful	-7.93219
▁diff	-7.93222
▁trans	-7.93224
cess	-7.93228
eat	-7.93228
rst	-7.93237
▁imp	-7.93258
ions	-7.93263
▁conv	-7.93278
ran	-7.93321
rov	-7.93334
W	-9.27197
M	-9.27207
C	-9.27217
F	-9.27227
N	-9.27237
D	-9.27247
S	-9.27257
I	-9.27267
A	-9.27277
B	-9.27287
E	-9.27297
P	-9.27307
T	-9.27317
q	-9.27327
z	-9.27337
w	-9.27347
g	-9.27357
h	-9.27367
